{
  "merges": [
    [
      "e",
      "</w>"
    ],
    [
      "d",
      "</w>"
    ],
    [
      "▁",
      "t"
    ],
    [
      "▁",
      "a"
    ],
    [
      ".",
      "</w>"
    ],
    [
      "y",
      "</w>"
    ],
    [
      "s",
      "</w>"
    ],
    [
      "h",
      "e</w>"
    ],
    [
      "▁",
      "s"
    ],
    [
      "▁",
      "w"
    ],
    [
      "e",
      "d</w>"
    ],
    [
      "n",
      "d</w>"
    ],
    [
      "n",
      "</w>"
    ],
    [
      ",",
      "</w>"
    ],
    [
      "o",
      "</w>"
    ],
    [
      "e",
      "r"
    ],
    [
      "▁",
      "b"
    ],
    [
      "▁t",
      "he</w>"
    ],
    [
      "▁a",
      "nd</w>"
    ],
    [
      "▁",
      "f"
    ],
    [
      "▁",
      "T"
    ],
    [
      "▁w",
      "a"
    ],
    [
      "m",
      "</w>"
    ],
    [
      "▁a",
      "</w>"
    ],
    [
      "<nl>",
      "</w>"
    ],
    [
      "▁t",
      "o</w>"
    ],
    [
      "i",
      "t"
    ],
    [
      "o",
      "u"
    ],
    [
      "h",
      "a"
    ],
    [
      "g",
      "</w>"
    ],
    [
      "▁",
      "l"
    ],
    [
      "▁",
      "d"
    ],
    [
      "▁",
      "c"
    ],
    [
      "▁",
      "p"
    ],
    [
      "er",
      "</w>"
    ],
    [
      "\"",
      "</w>"
    ],
    [
      "▁",
      "m"
    ],
    [
      "l",
      "</w>"
    ],
    [
      "▁wa",
      "s</w>"
    ],
    [
      "▁s",
      "a"
    ],
    [
      "▁",
      "n"
    ],
    [
      "e",
      "y</w>"
    ],
    [
      "h",
      "</w>"
    ],
    [
      "h",
      "ey</w>"
    ],
    [
      "▁",
      "ha"
    ],
    [
      "o",
      "r"
    ],
    [
      "▁",
      "g"
    ],
    [
      "e",
      "a"
    ],
    [
      "n",
      "g</w>"
    ],
    [
      "▁",
      "S"
    ],
    [
      "n",
      "t"
    ],
    [
      "o",
      "t"
    ],
    [
      "w",
      "</w>"
    ],
    [
      "k",
      "</w>"
    ],
    [
      "i",
      "ng</w>"
    ],
    [
      "i",
      "s</w>"
    ],
    [
      "o",
      "m</w>"
    ],
    [
      "h",
      "er</w>"
    ],
    [
      "e",
      "t"
    ],
    [
      "i",
      "r"
    ],
    [
      "l",
      "l</w>"
    ],
    [
      "▁c",
      "a"
    ],
    [
      "it",
      "</w>"
    ],
    [
      "o",
      "n</w>"
    ],
    [
      "o",
      "f"
    ],
    [
      "i",
      "d</w>"
    ],
    [
      "▁",
      "r"
    ],
    [
      "▁",
      "H"
    ],
    [
      "i",
      "m</w>"
    ],
    [
      "i",
      "n</w>"
    ],
    [
      "l",
      "y</w>"
    ],
    [
      "▁d",
      "a"
    ],
    [
      "▁T",
      "hey</w>"
    ],
    [
      "▁",
      "it</w>"
    ],
    [
      "▁p",
      "l"
    ],
    [
      "e",
      "n</w>"
    ],
    [
      "▁pl",
      "a"
    ],
    [
      "l",
      "e</w>"
    ],
    [
      "▁H",
      "e</w>"
    ],
    [
      "ot",
      "</w>"
    ],
    [
      "▁",
      "\"</w>"
    ],
    [
      "er",
      "e</w>"
    ],
    [
      "▁T",
      "he</w>"
    ],
    [
      "h",
      "is</w>"
    ],
    [
      "▁",
      "u"
    ],
    [
      "▁sa",
      "id</w>"
    ],
    [
      "▁w",
      "it"
    ],
    [
      "p",
      "</w>"
    ],
    [
      "n",
      "e</w>"
    ],
    [
      "p",
      "p"
    ],
    [
      "▁da",
      "y</w>"
    ],
    [
      "▁f",
      "r"
    ],
    [
      "▁wit",
      "h</w>"
    ],
    [
      "▁",
      "y"
    ],
    [
      "k",
      "ed</w>"
    ],
    [
      "e",
      "x"
    ],
    [
      "▁",
      "her</w>"
    ],
    [
      "▁",
      "his</w>"
    ],
    [
      "▁",
      "in</w>"
    ],
    [
      "▁",
      "I"
    ],
    [
      "▁S",
      "he</w>"
    ],
    [
      "nt",
      "</w>"
    ],
    [
      "▁T",
      "im</w>"
    ],
    [
      "▁s",
      "t"
    ],
    [
      "l",
      "d</w>"
    ],
    [
      "ou",
      "</w>"
    ],
    [
      "c",
      "e</w>"
    ],
    [
      "i",
      "g</w>"
    ],
    [
      "▁m",
      "a"
    ],
    [
      "▁b",
      "ig</w>"
    ],
    [
      "e",
      "s</w>"
    ],
    [
      "▁b",
      "a"
    ],
    [
      "▁",
      "he</w>"
    ],
    [
      "▁ha",
      "pp"
    ],
    [
      "er",
      "y</w>"
    ],
    [
      "▁fr",
      "i"
    ],
    [
      "v",
      "ery</w>"
    ],
    [
      "▁fri",
      "e"
    ],
    [
      "or",
      "</w>"
    ],
    [
      "ex",
      "t"
    ],
    [
      "▁t",
      "hey</w>"
    ],
    [
      "ext",
      "</w>"
    ],
    [
      "of",
      "t"
    ],
    [
      "▁t",
      "r"
    ],
    [
      "▁b",
      "u"
    ],
    [
      "▁",
      "L"
    ],
    [
      "i",
      "ly</w>"
    ],
    [
      "▁t",
      "ha"
    ],
    [
      "d",
      "s</w>"
    ],
    [
      "v",
      "e</w>"
    ],
    [
      "▁ha",
      "d</w>"
    ],
    [
      "k",
      "e</w>"
    ],
    [
      "▁y",
      "ou</w>"
    ],
    [
      "s",
      "e</w>"
    ],
    [
      "it",
      "t"
    ],
    [
      "|",
      ">"
    ],
    [
      "|>",
      "</w>"
    ],
    [
      "|",
      "</w>"
    ],
    [
      "oft",
      "ext</w>"
    ],
    [
      "d",
      "oftext</w>"
    ],
    [
      "n",
      "doftext</w>"
    ],
    [
      "e",
      "ndoftext</w>"
    ],
    [
      "<",
      "|</w>"
    ],
    [
      "▁",
      "B"
    ],
    [
      "▁n",
      "ot</w>"
    ],
    [
      "h",
      "ere</w>"
    ],
    [
      "▁",
      "k"
    ],
    [
      "et",
      "</w>"
    ],
    [
      "c",
      "k</w>"
    ],
    [
      "▁happ",
      "y</w>"
    ],
    [
      "of",
      "</w>"
    ],
    [
      "▁",
      "on</w>"
    ],
    [
      "▁",
      "of</w>"
    ],
    [
      "▁",
      "very</w>"
    ],
    [
      "▁",
      "M"
    ],
    [
      "▁sa",
      "w</w>"
    ],
    [
      "O",
      "ne</w>"
    ],
    [
      "o",
      "w</w>"
    ],
    [
      "▁tha",
      "t"
    ],
    [
      "▁that",
      "</w>"
    ],
    [
      "'",
      "s</w>"
    ],
    [
      "▁pla",
      "y</w>"
    ],
    [
      "itt",
      "le</w>"
    ],
    [
      "▁l",
      "ittle</w>"
    ],
    [
      "▁n",
      "a"
    ],
    [
      "e",
      "nt</w>"
    ],
    [
      "d",
      "e</w>"
    ],
    [
      "m",
      "ed</w>"
    ],
    [
      "ou",
      "ld</w>"
    ],
    [
      "ea",
      "r"
    ],
    [
      "▁f",
      "or</w>"
    ],
    [
      "n",
      "ds</w>"
    ],
    [
      "h",
      "en</w>"
    ],
    [
      "▁s",
      "he</w>"
    ],
    [
      ".",
      "\"</w>"
    ],
    [
      "o",
      "y</w>"
    ],
    [
      "▁t",
      "here</w>"
    ],
    [
      "▁m",
      "om</w>"
    ],
    [
      "e",
      "e</w>"
    ],
    [
      "nt",
      "ed</w>"
    ],
    [
      "ou",
      "nd</w>"
    ],
    [
      "▁na",
      "med</w>"
    ],
    [
      "n",
      "ce</w>"
    ],
    [
      "▁s",
      "m"
    ],
    [
      "▁p",
      "a"
    ],
    [
      "▁w",
      "ere</w>"
    ],
    [
      "▁pla",
      "y"
    ],
    [
      "▁wa",
      "nted</w>"
    ],
    [
      "▁L",
      "ily</w>"
    ],
    [
      "c",
      "h</w>"
    ],
    [
      "e",
      "w</w>"
    ],
    [
      "ou",
      "t"
    ],
    [
      "▁bu",
      "t"
    ],
    [
      "▁a",
      "r"
    ],
    [
      "▁frie",
      "nds</w>"
    ],
    [
      "h",
      "t"
    ],
    [
      "▁b",
      "ir"
    ],
    [
      "v",
      "ed</w>"
    ],
    [
      "!",
      "\"</w>"
    ],
    [
      "g",
      "ht"
    ],
    [
      "!",
      "</w>"
    ],
    [
      "▁T",
      "om</w>"
    ],
    [
      "▁I",
      "</w>"
    ],
    [
      "▁s",
      "o</w>"
    ],
    [
      "▁but",
      "</w>"
    ],
    [
      "▁w",
      "ent</w>"
    ],
    [
      "▁f",
      "u"
    ],
    [
      "O",
      "nce</w>"
    ],
    [
      "▁I",
      "t"
    ],
    [
      "▁It",
      "</w>"
    ],
    [
      "▁bir",
      "d</w>"
    ],
    [
      "▁a",
      "ll</w>"
    ],
    [
      "n",
      "y</w>"
    ],
    [
      "p",
      "on</w>"
    ],
    [
      "▁",
      "A"
    ],
    [
      "▁u",
      "pon</w>"
    ],
    [
      "ir",
      "</w>"
    ],
    [
      "▁",
      "is</w>"
    ],
    [
      "ght",
      "</w>"
    ],
    [
      "▁f",
      "a"
    ],
    [
      "u",
      "e</w>"
    ],
    [
      "o",
      "g</w>"
    ],
    [
      "n",
      "ed</w>"
    ],
    [
      "▁",
      "j"
    ],
    [
      "▁a",
      "t"
    ],
    [
      "et",
      "her</w>"
    ],
    [
      "g",
      "ether</w>"
    ],
    [
      "o",
      "gether</w>"
    ],
    [
      "▁ca",
      "t"
    ],
    [
      "▁st",
      "a"
    ],
    [
      "▁t",
      "ogether</w>"
    ],
    [
      "i",
      "de</w>"
    ],
    [
      "o",
      "k</w>"
    ],
    [
      "o",
      "ok</w>"
    ],
    [
      "▁ca",
      "r"
    ],
    [
      "▁fu",
      "n</w>"
    ],
    [
      "▁c",
      "l"
    ],
    [
      "▁r",
      "a"
    ],
    [
      "▁g",
      "r"
    ],
    [
      "▁t",
      "a"
    ],
    [
      "▁s",
      "u"
    ],
    [
      "l",
      "p</w>"
    ],
    [
      "e",
      "lp</w>"
    ],
    [
      "i",
      "nd</w>"
    ],
    [
      "▁S",
      "a"
    ],
    [
      "h",
      "elp</w>"
    ],
    [
      "▁",
      "help</w>"
    ],
    [
      "out",
      "</w>"
    ],
    [
      "▁d",
      "og</w>"
    ],
    [
      "e",
      "ir</w>"
    ],
    [
      "h",
      "eir</w>"
    ],
    [
      "o",
      "ne</w>"
    ],
    [
      "or",
      "e</w>"
    ],
    [
      "▁p",
      "r"
    ],
    [
      "▁b",
      "e</w>"
    ],
    [
      "▁l",
      "a"
    ],
    [
      "▁p",
      "u"
    ],
    [
      "▁g",
      "ir"
    ],
    [
      "▁t",
      "heir</w>"
    ],
    [
      "▁cat",
      "</w>"
    ],
    [
      "▁at",
      "</w>"
    ],
    [
      "▁ca",
      "n</w>"
    ],
    [
      "▁gir",
      "l</w>"
    ],
    [
      "▁play",
      "ed</w>"
    ],
    [
      "▁pa",
      "r"
    ],
    [
      "o",
      "o</w>"
    ],
    [
      "h",
      "ing</w>"
    ],
    [
      "e",
      "m</w>"
    ],
    [
      "▁b",
      "r"
    ],
    [
      "h",
      "ed</w>"
    ],
    [
      "?",
      "\"</w>"
    ],
    [
      "▁k",
      "n"
    ],
    [
      "o",
      "d</w>"
    ],
    [
      "▁u",
      "p</w>"
    ],
    [
      "▁M",
      "a"
    ],
    [
      "▁ar",
      "e</w>"
    ],
    [
      "i",
      "a"
    ],
    [
      "h",
      "im</w>"
    ],
    [
      "▁",
      "him</w>"
    ],
    [
      "▁d",
      "id</w>"
    ],
    [
      "'",
      "t"
    ],
    [
      "'t",
      "</w>"
    ],
    [
      "▁ba",
      "ll</w>"
    ],
    [
      "o",
      "od</w>"
    ],
    [
      "▁t",
      "oo</w>"
    ],
    [
      "w",
      "n</w>"
    ],
    [
      "▁c",
      "ould</w>"
    ],
    [
      "h",
      "em</w>"
    ],
    [
      "▁t",
      "hem</w>"
    ],
    [
      "o",
      "ved</w>"
    ],
    [
      "▁sa",
      "d</w>"
    ],
    [
      "▁b",
      "oy</w>"
    ],
    [
      "o",
      "wn</w>"
    ],
    [
      "i",
      "ll</w>"
    ],
    [
      "l",
      "t"
    ],
    [
      "▁tr",
      "ee</w>"
    ],
    [
      "v",
      "er</w>"
    ],
    [
      "o",
      "ked</w>"
    ],
    [
      "▁s",
      "c"
    ],
    [
      "ea",
      "t"
    ],
    [
      "o",
      "oked</w>"
    ],
    [
      "▁l",
      "oved</w>"
    ],
    [
      "▁ha",
      "ve</w>"
    ],
    [
      "ou",
      "r"
    ],
    [
      "▁f",
      "ound</w>"
    ],
    [
      "▁l",
      "ooked</w>"
    ],
    [
      "g",
      "s</w>"
    ],
    [
      "▁sm",
      "i"
    ],
    [
      "▁s",
      "p"
    ],
    [
      "h",
      "u"
    ],
    [
      "▁sta",
      "r"
    ],
    [
      "▁S",
      "ue</w>"
    ],
    [
      "▁B",
      "u"
    ],
    [
      "▁g",
      "a"
    ],
    [
      "o",
      "ld</w>"
    ],
    [
      "▁frie",
      "nd</w>"
    ],
    [
      "lt",
      "</w>"
    ],
    [
      "i",
      "ke</w>"
    ],
    [
      "▁ba",
      "ck</w>"
    ],
    [
      "▁Ma",
      "x"
    ],
    [
      "▁Max",
      "</w>"
    ],
    [
      "l",
      "ly</w>"
    ],
    [
      "u",
      "l</w>"
    ],
    [
      "s",
      "ide</w>"
    ],
    [
      "▁g",
      "o</w>"
    ],
    [
      "f",
      "ul</w>"
    ],
    [
      "▁",
      "hu"
    ],
    [
      "▁t",
      "oy</w>"
    ],
    [
      "▁par",
      "k</w>"
    ],
    [
      "d",
      "ed</w>"
    ],
    [
      "ot",
      "her</w>"
    ],
    [
      "ear",
      "</w>"
    ],
    [
      "i",
      "ked</w>"
    ],
    [
      "▁l",
      "iked</w>"
    ],
    [
      "e",
      "lt</w>"
    ],
    [
      "▁star",
      "t"
    ],
    [
      "c",
      "t"
    ],
    [
      "▁w",
      "ould</w>"
    ],
    [
      "o",
      "b"
    ],
    [
      "▁",
      "One</w>"
    ],
    [
      "s",
      "h</w>"
    ],
    [
      "▁d",
      "r"
    ],
    [
      "▁j",
      "u"
    ],
    [
      "▁l",
      "ike</w>"
    ],
    [
      "▁Bu",
      "t"
    ],
    [
      "▁f",
      "elt</w>"
    ],
    [
      "▁But",
      "</w>"
    ],
    [
      "▁ca",
      "m"
    ],
    [
      "et",
      "t"
    ],
    [
      "▁smi",
      "l"
    ],
    [
      "▁",
      "W"
    ],
    [
      "▁sm",
      "a"
    ],
    [
      "s",
      "ked</w>"
    ],
    [
      "▁a",
      "sked</w>"
    ],
    [
      "▁cam",
      "e</w>"
    ],
    [
      "▁start",
      "ed</w>"
    ],
    [
      "▁c",
      "r"
    ],
    [
      "i",
      "ce</w>"
    ],
    [
      "▁Sa",
      "m</w>"
    ],
    [
      "▁sc",
      "a"
    ],
    [
      "Y",
      "ou</w>"
    ],
    [
      "our",
      "</w>"
    ],
    [
      "▁n",
      "ew</w>"
    ],
    [
      "n",
      "gs</w>"
    ],
    [
      "▁a",
      "g"
    ],
    [
      "ou",
      "ght</w>"
    ],
    [
      "s",
      "ed</w>"
    ],
    [
      "ou",
      "se</w>"
    ],
    [
      "n",
      "k</w>"
    ],
    [
      "▁u",
      "n"
    ],
    [
      "s",
      "s</w>"
    ],
    [
      "o",
      "ng</w>"
    ],
    [
      "▁B",
      "en</w>"
    ],
    [
      "▁ma",
      "ke</w>"
    ],
    [
      "▁m",
      "u"
    ],
    [
      "▁sca",
      "r"
    ],
    [
      "▁wa",
      "t"
    ],
    [
      "▁wa",
      "nt</w>"
    ],
    [
      "▁r",
      "e"
    ],
    [
      "▁smil",
      "ed</w>"
    ],
    [
      "▁sma",
      "ll</w>"
    ],
    [
      "i",
      "ngs</w>"
    ],
    [
      "▁S",
      "p"
    ],
    [
      "d",
      "y</w>"
    ],
    [
      "▁s",
      "ha"
    ],
    [
      "▁s",
      "ee</w>"
    ],
    [
      "eat",
      "</w>"
    ],
    [
      "i",
      "ght</w>"
    ],
    [
      "▁w",
      "ha"
    ],
    [
      "▁a",
      "w"
    ],
    [
      "k",
      "s</w>"
    ],
    [
      "o",
      "x"
    ],
    [
      "▁aw",
      "a"
    ],
    [
      "▁awa",
      "y</w>"
    ],
    [
      "▁fr",
      "om</w>"
    ],
    [
      "▁ma",
      "de</w>"
    ],
    [
      "▁Sp",
      "ot</w>"
    ],
    [
      "▁",
      "out</w>"
    ],
    [
      "▁wha",
      "t"
    ],
    [
      "et",
      "hing</w>"
    ],
    [
      "m",
      "ething</w>"
    ],
    [
      "o",
      "mething</w>"
    ],
    [
      "▁what",
      "</w>"
    ],
    [
      "▁play",
      "ing</w>"
    ],
    [
      "e",
      "ned</w>"
    ],
    [
      "▁s",
      "omething</w>"
    ],
    [
      "ox",
      "</w>"
    ],
    [
      "l",
      "s</w>"
    ],
    [
      "▁f",
      "ind</w>"
    ],
    [
      "o",
      "a"
    ],
    [
      "▁pu",
      "t"
    ],
    [
      "h",
      "ought</w>"
    ],
    [
      "▁t",
      "hought</w>"
    ],
    [
      "▁b",
      "l"
    ],
    [
      "▁g",
      "ood</w>"
    ],
    [
      "c",
      "y</w>"
    ],
    [
      "▁",
      "F"
    ],
    [
      "▁ag",
      "a"
    ],
    [
      "▁",
      "other</w>"
    ],
    [
      "n",
      "ny</w>"
    ],
    [
      "▁put",
      "</w>"
    ],
    [
      "▁d",
      "own</w>"
    ],
    [
      "▁aga",
      "in</w>"
    ],
    [
      "ia",
      "</w>"
    ],
    [
      "e",
      "l</w>"
    ],
    [
      "▁r",
      "ea"
    ],
    [
      "i",
      "ved</w>"
    ],
    [
      "▁ra",
      "n</w>"
    ],
    [
      "▁la",
      "u"
    ],
    [
      "e",
      "ver</w>"
    ],
    [
      "m",
      "b"
    ],
    [
      "▁scar",
      "ed</w>"
    ],
    [
      "▁t",
      "ook</w>"
    ],
    [
      "g",
      "h</w>"
    ],
    [
      "▁",
      "J"
    ],
    [
      "▁d",
      "o</w>"
    ],
    [
      "▁ar",
      "ound</w>"
    ],
    [
      "▁s",
      "w"
    ],
    [
      "or",
      "r"
    ],
    [
      "▁m",
      "e</w>"
    ],
    [
      "▁l",
      "ear"
    ],
    [
      "h",
      "ouse</w>"
    ],
    [
      "▁",
      "house</w>"
    ],
    [
      "▁b",
      "ox</w>"
    ],
    [
      "er",
      "s</w>"
    ],
    [
      "▁l",
      "ived</w>"
    ],
    [
      "h",
      "ings</w>"
    ],
    [
      "▁t",
      "hings</w>"
    ],
    [
      "▁t",
      "hen</w>"
    ],
    [
      "▁r",
      "u"
    ],
    [
      "▁w",
      "ill</w>"
    ],
    [
      "o",
      "om</w>"
    ],
    [
      "i",
      "sh</w>"
    ],
    [
      "▁",
      "You</w>"
    ],
    [
      "▁sha",
      "r"
    ],
    [
      "▁a",
      "n</w>"
    ],
    [
      "▁a",
      "b"
    ],
    [
      "h",
      "ow</w>"
    ],
    [
      "▁w",
      "hen</w>"
    ],
    [
      "pp",
      "ed</w>"
    ],
    [
      ",",
      "\"</w>"
    ],
    [
      "▁car",
      "</w>"
    ],
    [
      "▁y",
      "our</w>"
    ],
    [
      "u",
      "cy</w>"
    ],
    [
      "▁m",
      "y</w>"
    ],
    [
      "ot",
      "h</w>"
    ],
    [
      "▁M",
      "ia</w>"
    ],
    [
      "i",
      "l</w>"
    ],
    [
      "d",
      "n</w>"
    ],
    [
      "▁sa",
      "y"
    ],
    [
      "T",
      "im</w>"
    ],
    [
      "i",
      "ve</w>"
    ],
    [
      "h",
      "o</w>"
    ],
    [
      "▁g",
      "ot</w>"
    ],
    [
      "ou",
      "d</w>"
    ],
    [
      "▁ma",
      "n</w>"
    ],
    [
      "▁st",
      "r"
    ],
    [
      "▁ma",
      "ny</w>"
    ],
    [
      "it",
      "ed</w>"
    ],
    [
      "n",
      "s</w>"
    ],
    [
      "▁ab",
      "out</w>"
    ],
    [
      "▁say",
      "s</w>"
    ],
    [
      "e",
      "ll</w>"
    ],
    [
      "▁r",
      "ed</w>"
    ],
    [
      "▁kn",
      "ew</w>"
    ],
    [
      "▁w",
      "ho</w>"
    ],
    [
      "d",
      "er</w>"
    ],
    [
      "orr",
      "y</w>"
    ],
    [
      "▁su",
      "r"
    ],
    [
      "▁w",
      "e</w>"
    ],
    [
      "L",
      "ily</w>"
    ],
    [
      "ob",
      "</w>"
    ],
    [
      "▁g",
      "et</w>"
    ],
    [
      "▁kn",
      "ow</w>"
    ],
    [
      "i",
      "se</w>"
    ],
    [
      "n",
      "side</w>"
    ],
    [
      "o",
      "p</w>"
    ],
    [
      "▁",
      "D"
    ],
    [
      "nt",
      "o</w>"
    ],
    [
      "u",
      "se</w>"
    ],
    [
      "ou",
      "s</w>"
    ],
    [
      "▁m",
      "ore</w>"
    ],
    [
      "g",
      "hed</w>"
    ],
    [
      "k",
      "y</w>"
    ],
    [
      "▁L",
      "ucy</w>"
    ],
    [
      "a",
      "use</w>"
    ],
    [
      "c",
      "ause</w>"
    ],
    [
      "e",
      "cause</w>"
    ],
    [
      "▁gr",
      "a"
    ],
    [
      "T",
      "ha"
    ],
    [
      "er",
      "y"
    ],
    [
      "v",
      "ery"
    ],
    [
      "e",
      "ss</w>"
    ],
    [
      "l",
      "w"
    ],
    [
      "lw",
      "a"
    ],
    [
      "▁lear",
      "ned</w>"
    ],
    [
      "lwa",
      "y"
    ],
    [
      "lway",
      "s</w>"
    ],
    [
      "ex",
      "c"
    ],
    [
      "▁",
      "exc"
    ],
    [
      "h",
      "r"
    ],
    [
      "▁b",
      "ecause</w>"
    ],
    [
      "▁a",
      "lways</w>"
    ],
    [
      "o",
      "ve</w>"
    ],
    [
      "ex",
      "p"
    ],
    [
      "out",
      "side</w>"
    ],
    [
      "▁",
      "outside</w>"
    ],
    [
      "i",
      "nto</w>"
    ],
    [
      "▁",
      "into</w>"
    ],
    [
      "▁wat",
      "er</w>"
    ],
    [
      "▁b",
      "oth</w>"
    ],
    [
      "i",
      "ded</w>"
    ],
    [
      "▁lau",
      "ghed</w>"
    ],
    [
      "o",
      "on</w>"
    ],
    [
      "c",
      "ided</w>"
    ],
    [
      "e",
      "cided</w>"
    ],
    [
      "▁d",
      "ecided</w>"
    ],
    [
      "it",
      "e</w>"
    ],
    [
      "e",
      "p</w>"
    ],
    [
      "▁r",
      "oom</w>"
    ],
    [
      "ea",
      "</w>"
    ],
    [
      "▁c",
      "u"
    ],
    [
      "▁",
      "E"
    ],
    [
      "▁ju",
      "m"
    ],
    [
      "▁a",
      "s</w>"
    ],
    [
      "e",
      "en</w>"
    ],
    [
      "▁t",
      "u"
    ],
    [
      "e",
      "ep</w>"
    ],
    [
      "▁A",
      "nd</w>"
    ],
    [
      "l",
      "k</w>"
    ],
    [
      "▁fa",
      "s"
    ],
    [
      "▁",
      "one</w>"
    ],
    [
      "▁t",
      "his</w>"
    ],
    [
      "e",
      "ed</w>"
    ],
    [
      "Y",
      "es</w>"
    ],
    [
      "l",
      "ked</w>"
    ],
    [
      "▁fas",
      "t"
    ],
    [
      "ea",
      "n</w>"
    ],
    [
      "o",
      "ck</w>"
    ],
    [
      "T",
      "hey</w>"
    ],
    [
      "▁exc",
      "ited</w>"
    ],
    [
      "c",
      "ked</w>"
    ],
    [
      "▁t",
      "old</w>"
    ],
    [
      "▁n",
      "ice</w>"
    ],
    [
      "i",
      "nside</w>"
    ],
    [
      "▁",
      "inside</w>"
    ],
    [
      "o",
      "or</w>"
    ],
    [
      "e",
      "ful</w>"
    ],
    [
      "ett",
      "y</w>"
    ],
    [
      "i",
      "ck</w>"
    ],
    [
      "g",
      "ed</w>"
    ],
    [
      "▁l",
      "ong</w>"
    ],
    [
      "i",
      "ny</w>"
    ],
    [
      "▁S",
      "o</w>"
    ],
    [
      "h",
      "y</w>"
    ],
    [
      "▁pr",
      "etty</w>"
    ],
    [
      "T",
      "om</w>"
    ],
    [
      "▁sur",
      "p"
    ],
    [
      "▁surp",
      "r"
    ],
    [
      "▁ga",
      "ve</w>"
    ],
    [
      "n",
      "ly</w>"
    ],
    [
      "▁mu",
      "ch</w>"
    ],
    [
      "▁",
      "eat</w>"
    ],
    [
      "n",
      "ing</w>"
    ],
    [
      "▁da",
      "d</w>"
    ],
    [
      "▁",
      "how</w>"
    ],
    [
      "c",
      "ks</w>"
    ],
    [
      "▁su",
      "n</w>"
    ],
    [
      "it",
      "s</w>"
    ],
    [
      "▁l",
      "ook</w>"
    ],
    [
      "c",
      "hed</w>"
    ],
    [
      "▁",
      "old</w>"
    ],
    [
      "s",
      "hed</w>"
    ],
    [
      "▁ta",
      "ke</w>"
    ],
    [
      "▁",
      "C"
    ],
    [
      "▁s",
      "orry</w>"
    ],
    [
      "e",
      "very</w>"
    ],
    [
      "▁",
      "every</w>"
    ],
    [
      "▁t",
      "hr"
    ],
    [
      "f",
      "e</w>"
    ],
    [
      "v",
      "en</w>"
    ],
    [
      "i",
      "e</w>"
    ],
    [
      "ett",
      "er</w>"
    ],
    [
      "▁wa",
      "lked</w>"
    ],
    [
      "or",
      "t"
    ],
    [
      "o",
      "pped</w>"
    ],
    [
      "c",
      "</w>"
    ],
    [
      "i",
      "c</w>"
    ],
    [
      "e",
      "very"
    ],
    [
      "▁",
      "every"
    ],
    [
      "ot",
      "s</w>"
    ],
    [
      "i",
      "sed</w>"
    ],
    [
      "▁A",
      "n"
    ],
    [
      "▁f",
      "ish</w>"
    ],
    [
      "oa",
      "t"
    ],
    [
      "w",
      "ed</w>"
    ],
    [
      "▁tu",
      "r"
    ],
    [
      "▁fast",
      "</w>"
    ],
    [
      "▁B",
      "ob</w>"
    ],
    [
      "▁H",
      "is</w>"
    ],
    [
      "i",
      "</w>"
    ],
    [
      "▁ha",
      "r"
    ],
    [
      "o",
      "wed</w>"
    ],
    [
      "l",
      "f"
    ],
    [
      "v",
      "ing</w>"
    ],
    [
      "g",
      "ged</w>"
    ],
    [
      "er",
      "ed</w>"
    ],
    [
      "▁ju",
      "s"
    ],
    [
      "▁jus",
      "t"
    ],
    [
      "▁just",
      "</w>"
    ],
    [
      "i",
      "on</w>"
    ],
    [
      "▁happ",
      "ened</w>"
    ],
    [
      "▁s",
      "ky</w>"
    ],
    [
      "▁s",
      "n"
    ],
    [
      "▁f",
      "ood</w>"
    ],
    [
      "w",
      "er</w>"
    ],
    [
      "▁W",
      "e</w>"
    ],
    [
      "▁F",
      "r"
    ],
    [
      "i",
      "dn</w>"
    ],
    [
      "▁d",
      "idn</w>"
    ],
    [
      "d",
      "ea</w>"
    ],
    [
      "i",
      "dea</w>"
    ],
    [
      "▁",
      "idea</w>"
    ],
    [
      "▁br",
      "a"
    ],
    [
      "s",
      "y</w>"
    ],
    [
      "▁k",
      "ind</w>"
    ],
    [
      "▁n",
      "o</w>"
    ],
    [
      "i",
      "nk</w>"
    ],
    [
      "i",
      "cked</w>"
    ],
    [
      "ear",
      "d</w>"
    ],
    [
      "m",
      "es</w>"
    ],
    [
      "i",
      "ne</w>"
    ],
    [
      "▁M",
      "om</w>"
    ],
    [
      "▁",
      "its</w>"
    ],
    [
      "o",
      "se</w>"
    ],
    [
      "▁car",
      "eful</w>"
    ],
    [
      "h",
      "eard</w>"
    ],
    [
      "▁",
      "heard</w>"
    ],
    [
      "▁b",
      "etter</w>"
    ],
    [
      "▁shar",
      "e</w>"
    ],
    [
      "▁c",
      "ha"
    ],
    [
      "ia",
      "l</w>"
    ],
    [
      "▁t",
      "w"
    ],
    [
      "c",
      "ial</w>"
    ],
    [
      "e",
      "cial</w>"
    ],
    [
      "▁sp",
      "ecial</w>"
    ],
    [
      "e",
      "el</w>"
    ],
    [
      "o",
      "ver</w>"
    ],
    [
      "▁a",
      "f"
    ],
    [
      "Tha",
      "nk</w>"
    ],
    [
      "d",
      "en</w>"
    ],
    [
      "▁ca",
      "ke</w>"
    ],
    [
      "exp",
      "e"
    ],
    [
      "oat",
      "</w>"
    ],
    [
      "▁l",
      "et</w>"
    ],
    [
      "d",
      "ing</w>"
    ],
    [
      "▁l",
      "ots</w>"
    ],
    [
      "lf",
      "</w>"
    ],
    [
      "▁n",
      "ear</w>"
    ],
    [
      "▁hu",
      "r"
    ],
    [
      "m",
      "ore</w>"
    ],
    [
      "y",
      "more</w>"
    ],
    [
      "n",
      "ymore</w>"
    ],
    [
      "▁a",
      "nymore</w>"
    ],
    [
      "▁",
      "q"
    ],
    [
      "▁q",
      "u"
    ],
    [
      "▁n",
      "ever</w>"
    ],
    [
      "▁J",
      "a"
    ],
    [
      "▁b",
      "ear</w>"
    ],
    [
      "▁d",
      "on</w>"
    ],
    [
      "or",
      "a"
    ],
    [
      "k",
      "et</w>"
    ],
    [
      "i",
      "ous</w>"
    ],
    [
      "i",
      "gh</w>"
    ],
    [
      "nt",
      "s</w>"
    ],
    [
      "▁T",
      "hen</w>"
    ],
    [
      "▁r",
      "ock</w>"
    ],
    [
      "▁An",
      "n"
    ],
    [
      "e",
      "nly</w>"
    ],
    [
      "d",
      "enly</w>"
    ],
    [
      "d",
      "denly</w>"
    ],
    [
      "▁ma",
      "g"
    ],
    [
      "▁jum",
      "p"
    ],
    [
      "▁Ann",
      "a"
    ],
    [
      "p",
      "t"
    ],
    [
      "o",
      "wer</w>"
    ],
    [
      "▁a",
      "m</w>"
    ],
    [
      "▁Anna",
      "</w>"
    ],
    [
      "▁b",
      "y</w>"
    ],
    [
      "i",
      "z"
    ],
    [
      "ct",
      "ed</w>"
    ],
    [
      "\n",
      "</w>"
    ],
    [
      "\n",
      "\n</w>"
    ],
    [
      "e",
      "ven</w>"
    ],
    [
      "▁",
      "over</w>"
    ],
    [
      "v",
      "es</w>"
    ],
    [
      "▁af",
      "t"
    ],
    [
      "▁sa",
      "fe</w>"
    ],
    [
      "n",
      "ked</w>"
    ],
    [
      "▁",
      "even</w>"
    ],
    [
      "▁fa",
      "m"
    ],
    [
      "h",
      "igh</w>"
    ],
    [
      "▁",
      "high</w>"
    ],
    [
      "▁ga",
      "r"
    ],
    [
      "▁gr",
      "ound</w>"
    ],
    [
      "▁un",
      "der</w>"
    ],
    [
      "ou",
      "gh</w>"
    ],
    [
      "▁ru",
      "n</w>"
    ],
    [
      "i",
      "mb"
    ],
    [
      "h",
      "iny</w>"
    ],
    [
      "k",
      "es</w>"
    ],
    [
      "▁s",
      "hiny</w>"
    ],
    [
      "▁har",
      "d</w>"
    ],
    [
      "▁cl",
      "imb"
    ],
    [
      "p",
      "ened</w>"
    ],
    [
      "o",
      "pened</w>"
    ],
    [
      "▁",
      "opened</w>"
    ],
    [
      "▁hur",
      "t"
    ],
    [
      "i",
      "x"
    ],
    [
      "▁p",
      "icked</w>"
    ],
    [
      "o",
      "ing</w>"
    ],
    [
      "g",
      "er</w>"
    ],
    [
      "▁aft",
      "er</w>"
    ],
    [
      "L",
      "et</w>"
    ],
    [
      "▁ba",
      "d</w>"
    ],
    [
      "expe",
      "cted</w>"
    ],
    [
      "of",
      "f"
    ],
    [
      "▁g",
      "l"
    ],
    [
      "▁surpr",
      "ised</w>"
    ],
    [
      "▁l",
      "ot</w>"
    ],
    [
      "ea",
      "m</w>"
    ],
    [
      "▁dr",
      "a"
    ],
    [
      "'",
      "m</w>"
    ],
    [
      "▁un",
      "expected</w>"
    ],
    [
      "▁f",
      "ir"
    ],
    [
      "▁f",
      "eel</w>"
    ],
    [
      "▁pr",
      "oud</w>"
    ],
    [
      "▁tha",
      "nked</w>"
    ],
    [
      "▁d",
      "oor</w>"
    ],
    [
      "▁fa",
      "r"
    ],
    [
      "e",
      "es</w>"
    ],
    [
      "▁tr",
      "a"
    ],
    [
      "▁Fr",
      "om</w>"
    ],
    [
      "p",
      "e</w>"
    ],
    [
      "ct",
      "u"
    ],
    [
      "▁H",
      "er</w>"
    ],
    [
      "▁",
      "ever</w>"
    ],
    [
      "▁bu",
      "g</w>"
    ],
    [
      "d",
      "dy</w>"
    ],
    [
      "▁gar",
      "den</w>"
    ],
    [
      "▁",
      "K"
    ],
    [
      "e",
      "et</w>"
    ],
    [
      "c",
      "ed</w>"
    ],
    [
      "▁W",
      "hen</w>"
    ],
    [
      "o",
      "le</w>"
    ],
    [
      "u",
      "ddenly</w>"
    ],
    [
      "▁s",
      "q"
    ],
    [
      "▁sq",
      "u"
    ],
    [
      "▁hu",
      "gged</w>"
    ],
    [
      "▁bl",
      "ue</w>"
    ],
    [
      "▁st",
      "ill</w>"
    ],
    [
      "▁wa",
      "y</w>"
    ],
    [
      "or",
      "y</w>"
    ],
    [
      "▁u",
      "nt"
    ],
    [
      "N",
      "o</w>"
    ],
    [
      "▁cl",
      "ean</w>"
    ],
    [
      "▁wa",
      "r"
    ],
    [
      "▁",
      "off"
    ],
    [
      "▁Sa",
      "r"
    ],
    [
      "▁Sar",
      "a"
    ],
    [
      "▁hurt",
      "</w>"
    ],
    [
      "o",
      "l</w>"
    ],
    [
      "▁",
      "P"
    ],
    [
      "a",
      "lly</w>"
    ],
    [
      "▁a",
      "d"
    ],
    [
      "▁jump",
      "ed</w>"
    ],
    [
      "▁fam",
      "ily</w>"
    ],
    [
      "l",
      "ls</w>"
    ],
    [
      "ea",
      "se</w>"
    ],
    [
      "▁unt",
      "il</w>"
    ],
    [
      "▁sa",
      "y</w>"
    ],
    [
      "h",
      "es</w>"
    ],
    [
      "ctu",
      "r"
    ],
    [
      "▁D",
      "a"
    ],
    [
      "▁cr",
      "a"
    ],
    [
      "▁st",
      "u"
    ],
    [
      "e",
      "lf</w>"
    ],
    [
      "▁g",
      "ive</w>"
    ],
    [
      "itt",
      "y</w>"
    ],
    [
      "o",
      "es</w>"
    ],
    [
      "▁n",
      "ow</w>"
    ],
    [
      "l",
      "dn</w>"
    ],
    [
      "ou",
      "ldn</w>"
    ],
    [
      "▁l",
      "oud</w>"
    ],
    [
      "▁a",
      "pp"
    ],
    [
      "▁tr",
      "y</w>"
    ],
    [
      "▁gr",
      "eat</w>"
    ],
    [
      "ea",
      "u"
    ],
    [
      "eau",
      "t"
    ],
    [
      "▁b",
      "eaut"
    ],
    [
      "▁ha",
      "t"
    ],
    [
      "▁n",
      "ext</w>"
    ],
    [
      "▁f",
      "ly</w>"
    ],
    [
      "▁mu",
      "s"
    ],
    [
      "▁wa",
      "lk</w>"
    ],
    [
      "▁Sa",
      "lly</w>"
    ],
    [
      "▁happ",
      "ily</w>"
    ],
    [
      "h",
      "ould</w>"
    ],
    [
      "or",
      "g"
    ],
    [
      "▁s",
      "hould</w>"
    ],
    [
      "▁l",
      "ove</w>"
    ],
    [
      "i",
      "ctur"
    ],
    [
      "▁p",
      "ictur"
    ],
    [
      "ir",
      "r"
    ],
    [
      "▁beaut",
      "i"
    ],
    [
      "▁st",
      "ory</w>"
    ],
    [
      "i",
      "ds</w>"
    ],
    [
      "o",
      "ke</w>"
    ],
    [
      "e",
      "pt"
    ],
    [
      "e",
      "ing</w>"
    ],
    [
      "▁beauti",
      "ful</w>"
    ],
    [
      "▁pla",
      "ce</w>"
    ],
    [
      "▁n",
      "eed</w>"
    ],
    [
      "w",
      "ers</w>"
    ],
    [
      "▁s",
      "how</w>"
    ],
    [
      "h",
      "owed</w>"
    ],
    [
      "▁s",
      "howed</w>"
    ],
    [
      "o",
      "ol</w>"
    ],
    [
      "-",
      "</w>"
    ],
    [
      "i",
      "p</w>"
    ],
    [
      "▁w",
      "r"
    ],
    [
      "h",
      "ole</w>"
    ],
    [
      "▁k",
      "ids</w>"
    ],
    [
      "N",
      "ow</w>"
    ],
    [
      "▁str",
      "ong</w>"
    ],
    [
      "▁y",
      "u"
    ],
    [
      "o",
      "wers</w>"
    ],
    [
      "▁s",
      "oft"
    ],
    [
      "ept",
      "</w>"
    ],
    [
      "▁re",
      "m"
    ],
    [
      "▁b",
      "oat</w>"
    ],
    [
      "e",
      "mb"
    ],
    [
      "▁re",
      "s"
    ],
    [
      "▁every",
      "one</w>"
    ],
    [
      "▁par",
      "t"
    ],
    [
      "▁t",
      "own</w>"
    ],
    [
      "▁off",
      "</w>"
    ],
    [
      "▁b",
      "eing</w>"
    ],
    [
      "▁mag",
      "ic</w>"
    ],
    [
      "▁st",
      "opped</w>"
    ],
    [
      "▁F",
      "l"
    ],
    [
      "▁yu",
      "m"
    ],
    [
      "▁yum",
      "m"
    ],
    [
      "▁yumm",
      "y</w>"
    ],
    [
      "w",
      "l</w>"
    ],
    [
      "▁c",
      "ouldn</w>"
    ],
    [
      "▁m",
      "et</w>"
    ],
    [
      "▁L",
      "et</w>"
    ],
    [
      "n",
      "ch</w>"
    ],
    [
      "▁fr",
      "og</w>"
    ],
    [
      "▁soft",
      "</w>"
    ],
    [
      "o",
      "cks</w>"
    ],
    [
      "i",
      "shed</w>"
    ],
    [
      "▁K",
      "itty</w>"
    ],
    [
      "▁m",
      "ouse</w>"
    ],
    [
      "b",
      "it</w>"
    ],
    [
      "▁ra",
      "b"
    ],
    [
      "▁y",
      "a"
    ],
    [
      "▁w",
      "ind</w>"
    ],
    [
      "▁at",
      "e</w>"
    ],
    [
      "▁Fl",
      "u"
    ],
    [
      "▁cl",
      "a"
    ],
    [
      "▁but",
      "t"
    ],
    [
      "▁Flu",
      "f"
    ],
    [
      "▁Fluf",
      "f"
    ],
    [
      "▁Fluff",
      "y</w>"
    ],
    [
      "e",
      "ld</w>"
    ],
    [
      "ea",
      "k</w>"
    ],
    [
      "d",
      "ly</w>"
    ],
    [
      "▁f",
      "ell</w>"
    ],
    [
      "ort",
      "a"
    ],
    [
      "o",
      "nd</w>"
    ],
    [
      "f",
      "ore</w>"
    ],
    [
      "e",
      "fore</w>"
    ],
    [
      "▁rab",
      "bit</w>"
    ],
    [
      "▁tw",
      "o</w>"
    ],
    [
      "h",
      "ers</w>"
    ],
    [
      "o",
      "ks</w>"
    ],
    [
      "o",
      "oks</w>"
    ],
    [
      "or",
      "k</w>"
    ],
    [
      "▁bra",
      "ve</w>"
    ],
    [
      "l",
      "o</w>"
    ],
    [
      "▁war",
      "m</w>"
    ],
    [
      "or",
      "s</w>"
    ],
    [
      "l",
      "ower</w>"
    ],
    [
      "▁t",
      "ir"
    ],
    [
      "i",
      "lly</w>"
    ],
    [
      "▁hat",
      "</w>"
    ],
    [
      "l",
      "lo</w>"
    ],
    [
      "e",
      "llo</w>"
    ],
    [
      "o",
      "ise</w>"
    ],
    [
      "▁n",
      "oise</w>"
    ],
    [
      "m",
      "ing</w>"
    ],
    [
      "▁s",
      "oon</w>"
    ],
    [
      "s",
      "o</w>"
    ],
    [
      "l",
      "so</w>"
    ],
    [
      "▁a",
      "lso</w>"
    ],
    [
      "▁gr",
      "een</w>"
    ],
    [
      "▁Sara",
      "</w>"
    ],
    [
      "ct",
      "</w>"
    ],
    [
      "▁",
      "R"
    ],
    [
      "Tha",
      "t"
    ],
    [
      "That",
      "</w>"
    ],
    [
      "▁",
      "or</w>"
    ],
    [
      "nt",
      "u"
    ],
    [
      "▁bu",
      "nny</w>"
    ],
    [
      "e",
      "ntu"
    ],
    [
      "v",
      "entu"
    ],
    [
      "c",
      "ket</w>"
    ],
    [
      "o",
      "ll</w>"
    ],
    [
      "s",
      "elf</w>"
    ],
    [
      "▁f",
      "ix"
    ],
    [
      "▁sa",
      "t"
    ],
    [
      "▁ha",
      "ving</w>"
    ],
    [
      "▁A",
      "</w>"
    ],
    [
      "▁sat",
      "</w>"
    ],
    [
      "▁smi",
      "le</w>"
    ],
    [
      "H",
      "i</w>"
    ],
    [
      "▁w",
      "here</w>"
    ],
    [
      "▁b",
      "efore</w>"
    ],
    [
      "▁k",
      "ept</w>"
    ],
    [
      "▁",
      "hole</w>"
    ],
    [
      "er",
      "r"
    ],
    [
      "▁sn",
      "a"
    ],
    [
      "“",
      "</w>"
    ],
    [
      "o",
      "wl</w>"
    ],
    [
      "▁cu",
      "r"
    ],
    [
      "L",
      "ook</w>"
    ],
    [
      "▁ha",
      "nds</w>"
    ],
    [
      "▁k",
      "eep</w>"
    ],
    [
      "▁st",
      "ore</w>"
    ],
    [
      "▁f",
      "org"
    ],
    [
      "T",
      "hen</w>"
    ],
    [
      "▁cr",
      "i"
    ],
    [
      "▁u",
      "sed</w>"
    ],
    [
      "▁jum",
      "p</w>"
    ],
    [
      "exp",
      "l"
    ],
    [
      "n",
      "er</w>"
    ],
    [
      "▁",
      "expl"
    ],
    [
      "”",
      "</w>"
    ],
    [
      "▁fu",
      "nny</w>"
    ],
    [
      "▁squ",
      "irr"
    ],
    [
      "▁bir",
      "ds</w>"
    ],
    [
      "▁p",
      "er"
    ],
    [
      "▁",
      "Now</w>"
    ],
    [
      "▁cat",
      "ch</w>"
    ],
    [
      "▁ba",
      "r"
    ],
    [
      "ot",
      "hers</w>"
    ],
    [
      "k",
      "en</w>"
    ],
    [
      "▁tir",
      "ed</w>"
    ],
    [
      "▁g",
      "oing</w>"
    ],
    [
      "▁T",
      "ha"
    ],
    [
      "▁wat",
      "ch</w>"
    ],
    [
      "▁ya",
      "r"
    ],
    [
      "▁st",
      "ick</w>"
    ],
    [
      "v",
      "a"
    ],
    [
      "?",
      "</w>"
    ],
    [
      "o",
      "ns</w>"
    ],
    [
      "▁fa",
      "v"
    ],
    [
      "▁su",
      "nny</w>"
    ],
    [
      "▁E",
      "very</w>"
    ],
    [
      "▁p",
      "ond</w>"
    ],
    [
      "▁ha",
      "s</w>"
    ],
    [
      "c",
      "hen</w>"
    ],
    [
      "it",
      "chen</w>"
    ],
    [
      "▁k",
      "itchen</w>"
    ],
    [
      "▁b",
      "ed</w>"
    ],
    [
      "y",
      "e</w>"
    ],
    [
      "▁part",
      "y</w>"
    ],
    [
      "▁",
      "ice</w>"
    ]
  ],
  "count": 1000
}